03ff05080bfa0e040f2bf6fcffee12f7f3dcdffcf61622f0dd
c90a1209f6d9f3090d0affcde3e0fef3ccd4dbfed6c2010e01
e7f405242d130e1315f1020804dfec0e06e2cfffe8cbb7eced
e7eb040a01fee400191adac4f71208d6e6e3e6f7e6f3dfd80a
fc0ff0f9f10b0208f8f10fe90905dc08f811fffbf9fdf1e22e
040ae8e8110005bd0b12f8009e0a110a10c41b070ad70d0edd
04113225f4eb05f7cec004e8f209eef41e0f06f3f7f6e607f8
0b02f3f50fd3d0dd09112220ecf91023fd0d0d13ff030202f0
fff7dae70505c9bcf610f5d3aac9f00b01d9a5beece6ea0a0f
f1e9e60c151110f214301c2122f8270d151ed5dc0bf6f315d2
13e4d9fbf421f1e806edfbedf4fddff9ef00f9e1091620edf0
f9f9dbe208080afdf9181c120d0b292905e6001e21eee90608
180f071c0de8ff05f8f201ef06ffef1922321c3a0205fb1117
fef31b1a11fe0117f6e0e0e0e1d6b8c5aac5d3e8bee3fc030b
fa07fefcf6fcfd03081713f9cac500161411ebc3f3081916e2
d6fa230cdaf1cef31c0c27fca504f52811dafaf1071dfe0808
1809fcf7f8f4d8f0fe07eed1abe90eddb6cee015d1e40d040f
0f190508020a04fc1d120dfe0c250eed112e06fbf9022507f2
fcf4070de60bfefceefb0af5cf081f13f3d708110ffae80f0a
171411eee71f082b16e623f922faca19ff10c90ceff6fde70d
06f2f9dce003090dc91816fea3e5170bbce702f6c61211f9f4
fd001319e90ffb0e1ee9fc1421e7ddff150bd0fcf7fced0f26
08fa03fe020a01f905e41adfe8e60900dedfd816130904caf4
090922ecf5f6f6281d05f6ca09340f15e2032d0f04cb0e10e9
d9ecfa0603beebe9dbc7efeaf104db0d020b1e00141d252c1b
f3f917041de2191c0ff8ddf51803ddf01600e7f0ed0d01eb07
f7edf80e0def101a14ec26270fd2e1f9d0b40607a8d60e1efd
fad9e4f9f708d0dfda06cec1f11617d9231100fa1a21ffed0b
f4f307fe06fb0b2414fbccf2ebeac4dd18fafe0708050304f7
0a060af310f2f1fededc0204e404f10406f0f8f8fe0b131b08
05e9c2fbf21bf1f1e3cc231f210eff0b2314041b0805fde9f9
f6f5fffcf90afbf0cef604161416f5edf9281d0d02fc1f1efd