110009f5f21c1604f4e718190afd0f190b060e1df0080e0f00
0200fdc1d215f801ccae0df90101c4f6001705d8fc18010df7
d3cfd7fc07d7ee0d0ee9f8120afb050117081b201005f107f1
d7f8fa1400f60b1e14f905000a050e1b0be2d8d8fe07eadce6
010a04fc0cfbfef70b0302ebef1c090add0a18f4f4150ef619
081bea090719dcf3170601c0271ae5dd001af4d9f40de9e8da
fd080e11051a030303f201071104fb09f2ece9f2060ef60e09
0bf3d0ef0900ddf10c0cf7f70110f4fbe7faf2ed0c0efff9e0
07030a090df7f9fa1c1004eaf9091907d3e0e8da08dec2a8d2
f3011a1f37fef2152339f808220d1903fe00def5f2e0d6d3df
d5b3c8ed06f6bcc70b18fcdae2141401d4f7fe010cf20406fe
a70304ff17f0fb011a151be607141ff6f30f210d0beb06f9f6
0a1a211908fafe0f0200fafdf8fceee3e1efedf5e706071311
0b28261202080e120a04efded2e1f2add0e6f0e9f1040bfd0d
08fb011b190901f7f309e707150c08ebf9fb12101f04000313
0f0af003f3001303f5e6cbf5121702e8e807131b13f9dfde04
20fb07f5051d1f040007160f0ff3f8200b08fef1150dfa17fb
0700fcf7060f09e3f3100f09e4170705f8de13000df8c9eaed
e6f0f2fbfefa0afae50ffb1afff81e0e1103191a0d03fc1303
f91601f51cfd240ec01f07320db214fa0905e3e7ebfbfbf7f6
e50c0bf7e90f1e06e7fe0a08f1e80010e4e3fd05e1cdeff508
f73124e9111326de0101fc0bb1070ce707f90916e0e6f7fa0d
071303fc0211fef5f8fa1c00eef0e4100101fbf6070c0ffa04
f504f3d8f6f9e7f803df01f30e1701e50c2319e9d4e51316fd
f6f9000c05e1f709f2ddc5e5f3d0bad1edeae6c9ebf30afafc
df061d2a11fc2408f8dffe06f9d9c706f20afdb70504120fd8
17f7041111f8fa1e220c0e260d090b150cfdf60af0f6f6fef1
f9f7121ae2f50817e7f4f60fe8d7fff4f7e1e5fdfe14dff403
05feff040af6fc100b070204010015f5ececf203f304fbf4f9
1617ec07f80304ef0df40df0fd0113eaf60804f40713021df1
edf0e6eb0102e8d9eaee00e8eef0e8020a0bfaf40d1912fefa
ebeaf7140ce8b1c8fb0bed05eed9ffec070705f1f9fe1b0eff