05e6b3d7e6010af5deb2e71c1a1c07f30f050f1bf3f9e9f203
d2d8f41e06e3f4fbfddff1f2eff6031200faed0e18e8ece7ef
e80708e0c2e809f6f1100e0aefdcf21a0a030a1a00191b1007
f7fcf9e2df03eef3e5d9d3e4dad9c30afbe7ec00090b181d26
1df9060b0c15ea051ede00ec1410d8081a09ed0a0109f104eb
f90417c9f4f60d08cf121723c505121ae0f1140efedd04020a
faf3ee01f70f29423810f80cf5f5d9121c2808050607f0fff2
ebf3d4c2cf260e06f9fd05eafc04f3d5ebfafdf90a0d260f0b
fceb0b1718fad706001901e60b030c01f4d1f9fd0bf8f8cdc7
060618f8030002eff5140101d5fc270106e10721fbf4e4d2d7
d6d1dbef00e8baf3f804f6e0fff902ece81a050607061bf209
eef5e6d4d4eed1b7ececfde0bdedf318d8dbf4000ee2faf9fe
02010cedf92516fa00f70f02f5fdf6e2f0ef04f9e6f8fc0926
e8f4020a1700fe160a040a0e1d0f12f008f7f0fcf3f3fdfe0b
0109f7dd10ed172c1606fffa182e262ae2c3eefe10f504e2f3
fff4f5182018f5dcfcf908f704f402e1eae6ee0ff1f52516fe
fdf4deff10f9e4cf1d1614f9dd220a090fef060a190505eafe
a7ebe5e6f3c8ea0de8ebc705fae317f91dfdf928edf3f4f70a
ebfdeded1ce40a0d080dfe05fc14f5fc0902150b17ff02f2fe
fdf4e3fae9ebd8faddd9e8bbd8d41fede0f20b211bf1f91312
0f06d9f2070ef6d2040aede9fb020af1f0fe011803e6cad60f
e4e610f205df1f0df2ee0d1d0fda1c2320f7e7140cf5bcdcfb
ee07fc0bdffb0717ffecea0136fdf2050a0b19f71ae401110e
0dfbeb160f08e2c9fa1728e5d80ce31bcfd1fbe30be1ffe8ef
241cfdfefc02070bfaf7f2021110e8f7eb1105ebf5faf8f8fa
18eb04121a1ff90c0d18d2eefef9f0dc140505dcf5f3f9e8da
0a0a11f7dcfa05e7d31ef6d3d8051feefc1816190c160f0b11
0306fdc7da09f7eefd0dbe001805f1fd150403f2e5daddeb0a
f7efe1e5cf0cfb16fa11141e27140c03f8fce9f9e2f4f4db03
db0201ffb6edd8f3e7f10b0a262b040a0d1afbf3f6f6f5f7fa
07f6fdf2f6e8d201303df3f516f6d0f50b1615f4daf2f7f507
09060ffb05f90a0118230eead5dd07261d13f7d50a1218f3e8