0a
e3
d8
df
01
e8
d2
e5
e4
ff
f3
08
f8
1c
fe
14
1d
19
0c
1c
25
0b
27
01
07
12
0c
03
09
f9
08
eb
f1
17
0f
e4
02
f6
17
04
fc
13
1c
06
f0
10
11
ef
03
f0
f5
fb
ef
ea
f1
34
1e
1f
02
08
04
1b
40
02
f3
c2
da
0d
30
f6
d5
d2
e2
1b
f9
ef
11
15
e5
fe
1f
10
ea
d9
00
21
17
ef
e2
e1
1b
24
fc
cc
fd
e3
33
1c
02
ed
f8
00
1a
0b
0e
e4
e4
ed
05
21
fe
d6
ed
1e
26
d4
ec
eb
2c
1a
dd
ea
fc
0d
14
1f
12
0e
26
22
08
08
17
11
ef
f2
16
0d
f1
c4
f3
f8
de
d4
de
00
ec
bf
e5
17
